<pad>	0
<s>	0
</s>	0
<unk>	0
__fallback__	0
calculate_math	0
control_light	0
create_note	0
docker_build_image	0
docker_compose_up	0
docker_list_containers	0
docker_pull_image	0
docker_restart_container	0
docker_show_logs	0
docker_stop_container	0
get_cpu_usage	0
get_current_time	0
get_disk_usage	0
get_ip_address	0
get_memory_usage	0
get_node_version	0
get_os_info	0
get_python_version	0
get_weather	0
git_branch	0
git_checkout_branch	0
git_diff	0
git_log	0
git_pull	0
git_stash_changes	0
git_status	0
list_downloads	0
list_home_files	0
list_processes	0
list_running_processes	0
open_browser	0
open_file	0
play_music	0
restart_service	0
search_web	0
send_email	0
set_volume	0
take_screenshot	0
translate_text	0
▁|	-0
▁-	-1
er	-2
▁d	-3
▁п	-4
ер	-5
▁с	-6
ко	-7
▁do	-8
ck	-9
ка	-10
it	-11
▁g	-12
▁git	-13
те	-14
no	-15
ен	-16
▁в	-17
ис	-18
cker	-19
▁docker	-20
▁c	-21
▁ко	-22
on	-23
▁no	-24
ес	-25
то	-26
me	-27
за	-28
ия	-29
▁f	-30
st	-31
▁p	-32
ll	-33
de	-34
▁i	-35
йн	-36
нте	-37
йнер	-38
▁конте	-39
▁контейнер	-40
▁node	-41
re	-42
":	-43
▁за	-44
▁по	-45
un	-46
lo	-47
ol	-48
wn	-49
all	-50
ра	-51
ет	-52
ов	-53
▁о	-54
уз	-55
▁t	-56
мен	-57
гр	-58
ок	-59
груз	-60
po	-61
▁di	-62
▁пр	-63
il	-64
▁н	-65
▁д	-66
▁и	-67
та	-68
at	-69
nt	-70
gu	-71
оц	-72
есс	-73
оцесс	-74
▁процесс	-75
UT	-76
{"	-77
ool	-78
▁un	-79
▁па	-80
ие	-81
▁загруз	-82
ерс	-83
▁верс	-84
▁st	-85
▁v	-86
si	-87
▁версия	-88
es	-89
ersi	-90
ersion	-91
▁version	-92
th	-93
yth	-94
ython	-95
▁python	-96
ar	-97
од	-98
ad	-99
ль	-100
пис	-101
▁down	-102
▁s	-103
▁из	-104
мя	-105
▁измен	-106
▁изменен	-107
us	-108
писок	-109
▁список	-110
тор	-111
ed	-112
ime	-113
▁контейнера	-114
▁downlo	-115
ай	-116
js	-117
ма	-118
ag	-119
age	-120
▁fil	-121
по	-122
▁ф	-123
айл	-124
▁файл	-125
am	-126
▁м	-127
sk	-128
▁вет	-129
▁ch	-130
ре	-131
▁об	-132
ущ	-133
▁изменения	-134
рес	-135
up	-136
мят	-137
▁памят	-138
ние	-139
▁контейнеры	-140
на	-141
om	-142
se	-143
ompo	-144
ompose	-145
▁compose	-146
▁нод	-147
▁files	-148
▁download	-149
▁disk	-150
▁in	-151
▁b	-152
▁л	-153
▁r	-154
ча	-155
▁а	-156
исте	-157
▁систе	-158
ки	-159
ment	-160
▁ло	-161
▁sp	-162
ce	-163
▁обра	-164
коль	-165
колько	-166
▁сколько	-167
",	-168
ER	-169
LS	-170
OO	-171
US	-172
]}	-173
ba	-174
bi	-175
na	-176
rt	-177
{}	-178
▁O	-179
▁T	-180
","	-181
":"	-182
":[	-183
PUT	-184
guo	-185
kno	-186
sup	-187
{}}	-188
▁US	-189
▁am	-190
▁{"	-191
OOLS	-192
alls	-193
argu	-194
back	-195
name	-196
port	-197
tool	-198
▁OUT	-199
":[{"	-200
":{}}	-201
biguo	-202
calls	-203
known	-204
ments	-205
▁USER	-206
▁chat	-207
▁fall	-208
▁tool	-209
ported	-210
▁TOOLS	-211
▁unsup	-212
":{}}]}	-213
biguous	-214
▁OUTPUT	-215
▁unknown	-216
arguments	-217
▁fallback	-218
▁ambiguous	-219
▁unsupported	-220
▁ад	-221
▁адрес	-222
ff	-223
▁diff	-224
▁time	-225
▁файлы	-226
▁дис	-227
ull	-228
▁pull	-229
▁загрузка	-230
▁мес	-231
▁процессо	-232
▁ис	-233
ны	-234
ные	-235
▁лог	-236
▁sto	-237
▁downloads	-238
ере	-239
ace	-240
▁space	-241
ито	-242
▁js	-243
жи	-244
кажи	-245
▁пере	-246
▁re	-247
▁покажи	-248
▁те	-249
пер	-250
in	-251
ус	-252
▁пос	-253
ree	-254
час	-255
▁се	-256
▁на	-257
пера	-258
▁ком	-259
pu	-260
▁cpu	-261
sh	-262
▁процессы	-263
▁lo	-264
art	-265
start	-266
▁restart	-267
ain	-268
▁im	-269
▁image	-270
зи	-271
▁ка	-272
▁run	-273
нов	-274
nter	-275
▁inter	-276
▁вре	-277
кущ	-278
▁текущ	-279
▁до	-280
▁дома	-281
▁ветка	-282
▁со	-283
▁пап	-284
▁система	-285
▁ip	-286
▁ветки	-287
▁опера	-288
▁памяти	-289
▁образа	-290
во	-291
ash	-292
▁stash	-293
▁ре	-294
пози	-295
позитор	-296
▁репозитор	-297
ение	-298
▁зап	-299
ная	-300
▁диск	-301
▁место	-302
▁загрузок	-303
▁память	-304
▁папка	-305
ий	-306
зов	-307
ание	-308
поль	-309
зование	-310
▁исполь	-311
▁использование	-312
▁ноды	-313
▁процессора	-314
▁комм	-315
ть	-316
ущен	-317
▁запущен	-318
▁log	-319
▁stop	-320
▁логи	-321
▁запущенные	-322
ild	-323
▁bu	-324
▁build	-325
der	-326
▁fol	-327
▁folder	-328
▁нода	-329
▁free	-330
ont	-331
ainer	-332
▁cont	-333
▁container	-334
▁пито	-335
рет	-336
time	-337
alled	-338
▁inst	-339
▁runtime	-340
▁installed	-341
pre	-342
ter	-343
preter	-344
▁interpreter	-345
ста	-346
ти	-347
лу	-348
▁l	-349
ess	-350
но	-351
▁br	-352
an	-353
ch	-354
ur	-355
чи	-356
ate	-357
▁ин	-358
▁o	-359
тер	-360
▁интер	-361
ед	-362
мо	-363
ни	-364
▁систем	-365
йчас	-366
▁сейчас	-367
зап	-368
запус	-369
▁перезапус	-370
▁n	-371
et	-372
ss	-373
▁перезапуск	-374
ран	-375
▁li	-376
oc	-377
roc	-378
▁proc	-379
▁process	-380
▁под	-381
де	-382
мот	-383
▁посмот	-384
кая	-385
▁какая	-386
▁образ	-387
▁ра	-388
ou	-389
eck	-390
out	-391
eckout	-392
▁checkout	-393
нови	-394
кл	-395
клю	-396
мени	-397
▁время	-398
▁ч	-399
▁что	-400
anch	-401
▁branch	-402
шн	-403
▁домашн	-404
▁времени	-405
ор	-406
ый	-407
▁час	-408
торый	-409
▁который	-410
ая	-411
тив	-412
▁текущая	-413
▁ста	-414
▁файлов	-415
ци	-416
▁переклю	-417
▁загрузки	-418
тус	-419
▁статус	-420
▁раз	-421
▁ска	-422
▁да	-423
▁оста	-424
ее	-425
▁текущее	-426
▁дата	-427
▁коде	-428
ето	-429
еток	-430
▁веток	-431
вой	-432
тевой	-433
▁сетевой	-434
▁нагруз	-435
он	-436
цион	-437
ционная	-438
▁операционная	-439
чение	-440
▁репозитория	-441
▁переключение	-442
мена	-443
▁смена	-444
▁оператив	-445
▁скача	-446
▁диске	-447
▁диска	-448
lock	-449
rent	-450
▁cur	-451
▁now	-452
▁date	-453
▁clock	-454
▁current	-455
▁процессор	-456
рт	-457
▁рес	-458
▁реста	-459
мер	-460
▁размер	-461
▁сох	-462
яя	-463
▁рестарт	-464
▁системы	-465
▁домашняя	-466
бор	-467
борка	-468
▁сборка	-469
сто	-470
стоя	-471
стояние	-472
▁состояние	-473
ети	-474
▁сети	-475
atus	-476
▁status	-477
▁обнови	-478
▁репозиторий	-479
лед	-480
ледние	-481
▁последние	-482
бод	-483
ное	-484
▁сво	-485
▁свобод	-486
ранение	-487
▁нагрузка	-488
▁изменений	-489
▁сохранение	-490
▁оперативная	-491
ит	-492
иты	-493
▁коммиты	-494
▁места	-495
▁свободное	-496
нные	-497
▁загрузках	-498
▁скачанные	-499
тя	-500
тяни	-501
▁подтяни	-502
▁up	-503
лучи	-504
▁получи	-505
итов	-506
тория	-507
▁история	-508
▁коммитов	-509
ho	-510
▁ho	-511
▁home	-512
▁процессов	-513
кой	-514
▁какой	-515
▁os	-516
fo	-517
▁info	-518
or	-519
add	-520
etw	-521
ork	-522
ress	-523
▁add	-524
▁netw	-525
▁address	-526
▁network	-527
новка	-528
▁остановка	-529
ade	-530
aded	-531
▁downloaded	-532
▁logs	-533
▁ps	-534
▁контейнеров	-535
▁us	-536
rage	-537
▁ram	-538
▁usage	-539
▁storage	-540
жу	-541
жур	-542
нал	-543
▁жур	-544
▁журнал	-545
▁питона	-546
реть	-547
▁посмотреть	-548
▁nodejs	-549
▁list	-550
атор	-551
прет	-552
претатор	-553
▁интерпретатор	-554
▁питон	-555
▁w	-556
жа	-557
луй	-558
жалуй	-559
жалуйста	-560
▁пожалуйста	-561
овер	-562
▁провер	-563
ath	-564
кр	-565
▁we	-566
en	-567
▁m	-568
em	-569
не	-570
▁вы	-571
▁мо	-572
еш	-573
ешь	-574
жешь	-575
▁можешь	-576
▁б	-577
ткр	-578
▁откр	-579
pen	-580
ыть	-581
▁open	-582
▁открыть	-583
um	-584
cu	-585
▁file	-586
gh	-587
ght	-588
кос	-589
ness	-590
кость	-591
late	-592
▁web	-593
▁я	-594
▁перев	-595
▁me	-596
ud	-597
ail	-598
ear	-599
earch	-600
▁search	-601
▁a	-602
ure	-603
▁ca	-604
▁мне	-605
▁sc	-606
reen	-607
▁screen	-608
вед	-609
веди	-610
▁выведи	-611
▁проверь	-612
уж	-613
▁нуж	-614
▁нужно	-615
▁системе	-616
лни	-617
полни	-618
▁выполни	-619
перь	-620
▁теперь	-621
вет	-622
ют	-623
▁выполнить	-624
пь	-625
ро	-626
пьют	-627
пьютере	-628
▁компьютере	-629
тро	-630
тать	-631
том	-632
рауз	-633
раузер	-634
▁браузер	-635
ля	-636
ыс	-637
▁быс	-638
▁для	-639
▁быстро	-640
▁проверки	-641
ей	-642
каль	-643
кально	-644
▁локально	-645
▁свет	-646
ык	-647
нете	-648
▁най	-649
▁интернете	-650
ow	-651
ows	-652
url	-653
айт	-654
нет	-655
▁url	-656
owser	-657
▁сайт	-658
▁browser	-659
▁интернет	-660
ту	-661
▁муз	-662
ca	-663
ber	-664
emp	-665
lcu	-666
ore	-667
год	-668
▁ма	-669
cast	-670
erat	-671
года	-672
мати	-673
тура	-674
▁num	-675
▁sum	-676
▁тем	-677
ather	-678
▁fore	-679
▁math	-680
▁rain	-681
▁temp	-682
▁мате	-683
матика	-684
читать	-685
▁calcu	-686
erature	-687
▁number	-688
▁погода	-689
пература	-690
▁weather	-691
▁forecast	-692
▁calculate	-693
▁посчитать	-694
▁математика	-695
▁temperature	-696
▁температура	-697
оку	-698
мент	-699
▁docu	-700
▁path	-701
▁read	-702
▁доку	-703
▁document	-704
▁документ	-705
ам	-706
па	-707
amp	-708
urn	-709
▁on	-710
▁яр	-711
ight	-712
ампа	-713
▁lamp	-714
▁turn	-715
▁light	-716
▁лампа	-717
▁bright	-718
▁яркость	-719
▁brightness	-720
ak	-721
ву	-722
ом	-723
▁з	-724
eak	-725
olu	-726
oun	-727
вук	-728
▁гр	-729
ound	-730
eaker	-731
olume	-732
▁loud	-733
▁гром	-734
▁звук	-735
▁sound	-736
▁volume	-737
▁speaker	-738
▁loudness	-739
▁громкость	-740
do	-741
mo	-742
te	-743
ans	-744
ite	-745
odo	-746
ать	-747
зык	-748
мет	-749
▁te	-750
▁tr	-751
▁wr	-752
angu	-753
ести	-754
метка	-755
▁memo	-756
▁note	-757
▁todo	-758
▁язык	-759
писать	-760
▁langu	-761
▁trans	-762
▁write	-763
▁заметка	-764
▁перевод	-765
▁language	-766
▁записать	-767
▁translate	-768
▁перевести	-769
gl	-770
oo	-771
end	-772
gle	-773
net	-774
иск	-775
ись	-776
чта	-777
▁em	-778
▁goo	-779
ssage	-780
исьмо	-781
▁mail	-782
▁send	-783
▁email	-784
▁найти	-785
▁поиск	-786
▁почта	-787
▁google	-788
▁письмо	-789
▁message	-790
▁internet	-791
ay	-792
io	-793
li	-794
lay	-795
ong	-796
sic	-797
ейл	-798
ист	-799
ыка	-800
▁mu	-801
▁пл	-802
list	-803
udio	-804
▁play	-805
▁song	-806
ейлист	-807
▁audio	-808
▁music	-809
▁музыка	-810
▁playlist	-811
▁плейлист	-812
vi	-813
aem	-814
вис	-815
ervi	-816
load	-817
▁сер	-818
aemon	-819
ervice	-820
▁daemon	-821
▁reload	-822
▁сервис	-823
▁service	-824
pp	-825
да	-826
ask	-827
ing	-828
pps	-829
asks	-830
ning	-831
дачи	-832
▁apps	-833
▁tasks	-834
▁задачи	-835
▁running	-836
▁processes	-837
ot	-838
pt	-839
ин	-840
от	-841
инш	-842
shot	-843
кран	-844
▁скр	-845
pture	-846
иншот	-847
▁capture	-848
▁скриншот	-849
▁screenshot	-850
▁у	-851
скажи	-852
ить	-853
ри	-854
▁посмотри	-855
▁х	-856
бра	-857
▁проверить	-858
ви	-859
оч	-860
вид	-861
еть	-862
очу	-863
▁увид	-864
▁хочу	-865
▁увидеть	-866
зать	-867
▁пока	-868
▁показать	-869
▁подскажи	-870
▁ото	-871
брази	-872
▁отобрази	-873
дел	-874
делай	-875
▁сделай	-876
лен	-877
▁ус	-878
танов	-879
тановлен	-880
▁установлен	-881
ку	-882
ию	-883
▁версию	-884
▁установлена	-885
▁как	-886
меня	-887
▁меня	-888
▁останови	-889
▁ветку	-890
▁какие	-891
пр	-892
пря	-893
▁спря	-894
ой	-895
▁открой	-896
ке	-897
ше	-898
ной	-899
фор	-900
тише	-901
усти	-902
форма	-903
▁папке	-904
▁запусти	-905
▁информа	-906
▁домашней	-907
▁остановить	-908
▁мой	-909
най	-910
▁уз	-911
▁узнай	-912
бо	-913
ня	-914
▁перезапусти	-915
▁ак	-916
тивные	-917
▁активные	-918
▁спрятать	-919
ниц	-920
▁разниц	-921
ди	-922
ую	-923
бер	-924
бери	-925
▁разница	-926
▁папку	-927
▁скачать	-928
ел	-929
иш	-930
ми	-931
ут	-932
чь	-933
▁ш	-934
бол	-935
ежи	-936
ела	-937
иши	-938
ную	-939
тай	-940
тих	-941
цию	-942
ция	-943
чай	-944
ыку	-945
груж	-946
ежит	-947
ивет	-948
ними	-949
нято	-950
пиши	-951
утку	-952
▁рас	-953
ключи	-954
▁дела	-955
▁мной	-956
▁стих	-957
▁тише	-958
болтай	-959
гружен	-960
▁лежит	-961
▁найди	-962
▁шутку	-963
▁включи	-964
▁занято	-965
▁измени	-966
▁музыку	-967
▁напиши	-968
▁потише	-969
▁привет	-970
▁скачай	-971
▁собери	-972
▁спрячь	-973
▁подними	-974
▁текущие	-975
▁загружен	-976
▁запущены	-977
▁нагрузку	-978
▁поболтай	-979
▁расскажи	-980
▁переключи	-981
▁информацию	-982
▁информация	-983
▁оперативной	-984
▁установлено	-985
▁установленную	-986
рани	-987
▁сохрани	-988
▁загрузить	-989
бота	-990
нять	-991
брать	-992
ботают	-993
менить	-994
▁поднять	-995
▁сменить	-996
▁собрать	-997
▁работают	-998
▁перезапустить	-999
го	-1000
ищ	-1001
ру	-1002
уй	-1003
гую	-1004
ище	-1005
йди	-1006
рта	-1007
▁во	-1008
лище	-1009
ного	-1010
ртуй	-1011
трой	-1012
▁дру	-1013
ртани	-1014
менное	-1015
▁убери	-1016
▁храни	-1017
▁другую	-1018
▁перейди	-1019
▁построй	-1020
▁стартуй	-1021
▁временное	-1022
▁хранилище	-1023
▁рестартани	-1024
▁свободного	-1025
▁нужны	-1026
▁разницу	-1027
юю	-1028
ения	-1029
▁дату	-1030
▁свед	-1031
▁скажи	-1032
▁домашнюю	-1033
▁загрузку	-1034
▁сведения	-1035
бро	-1036
брое	-1037
▁утро	-1038
▁доброе	-1039
TO	-1040
[{	-1041
ac	-1042
ae	-1043
ai	-1044
al	-1045
ap	-1046
as	-1047
au	-1048
be	-1049
bu	-1050
cp	-1051
da	-1052
dd	-1053
ds	-1054
ea	-1055
eb	-1056
ee	-1057
ej	-1058
ge	-1059
he	-1060
ht	-1061
ic	-1062
if	-1063
ig	-1064
im	-1065
ko	-1066
ks	-1067
la	-1068
lc	-1069
ld	-1070
le	-1071
lu	-1072
ma	-1073
mu	-1074
nc	-1075
ne	-1076
nf	-1077
ni	-1078
nk	-1079
nn	-1080
nu	-1081
od	-1082
og	-1083
op	-1084
os	-1085
pa	-1086
pe	-1087
ps	-1088
py	-1089
rc	-1090
ri	-1091
rk	-1092
rp	-1093
rs	-1094
ru	-1095
rv	-1096
sa	-1097
sc	-1098
sl	-1099
:"	-1100
:[	-1101
dn	-1102
dr	-1103
fr	-1104
kn	-1105
lb	-1106
ls	-1107
ng	-1108
oa	-1109
pr	-1110
rg	-1111
rn	-1112
so	-1113
sp	-1114
su	-1115
ti	-1116
tn	-1117
to	-1118
tr	-1119
ts	-1120
tu	-1121
tw	-1122
ua	-1123
ui	-1124
ul	-1125
vo	-1126
wo	-1127
ws	-1128
yl	-1129
}]	-1130
}}	-1131
аб	-1132
аг	-1133
ад	-1134
аж	-1135
аз	-1136
ак	-1137
ал	-1138
ан	-1139
ап	-1140
ар	-1141
ас	-1142
ат	-1143
ау	-1144
ах	-1145
ац	-1146
ач	-1147
аш	-1148
аю	-1149
бе	-1150
бн	-1151
бр	-1152
бы	-1153
ва	-1154
вк	-1155
вл	-1156
вн	-1157
вр	-1158
вы	-1159
гу	-1160
дл	-1161
дн	-1162
до	-1163
ды	-1164
ев	-1165
ез	-1166
ек	-1167
ем	-1168
еп	-1169
же	-1170
зв	-1171
зе	-1172
зк	-1173
зм	-1174
зо	-1175
зы	-1176
ив	-1177
ид	-1178
ик	-1179
им	-1180
ио	-1181
йд	-1182
йл	-1183
йс	-1184
йт	-1185
кт	-1186
ла	-1187
ле	-1188
ли	-1189
лн	-1190
ло	-1191
лы	-1192
лю	-1193
ме	-1194
мн	-1195
му	-1196
мы	-1197
нн	-1198
ну	-1199
,"	-1200
OL	-1201
OU	-1202
PU	-1203
SE	-1204
TP	-1205
co	-1206
cr	-1207
el	-1208
fi	-1209
go	-1210
gs	-1211
ha	-1212
ip	-1213
is	-1214
ke	-1215
mb	-1216
ns	-1217
rr	-1218
ta	-1219
uo	-1220
ut	-1221
ve	-1222
we	-1223
ги	-1224
дт	-1225
из	-1226
ил	-1227
их	-1228
нт	-1229
нф	-1230
нш	-1231
ог	-1232
ое	-1233
ож	-1234
оз	-1235
ои	-1236
оп	-1237
ос	-1238
ох	-1239
оя	-1240
пе	-1241
пк	-1242
пл	-1243
пу	-1244
рв	-1245
рк	-1246
рм	-1247
рн	-1248
рп	-1249
ры	-1250
ря	-1251
са	-1252
сб	-1253
св	-1254
сд	-1255
се	-1256
си	-1257
ск	-1258
сл	-1259
см	-1260
со	-1261
сп	-1262
сс	-1263
ст	-1264
сч	-1265
сы	-1266
сь	-1267
тк	-1268
тр	-1269
ты	-1270
уб	-1271
ув	-1272
уг	-1273
ук	-1274
ур	-1275
уч	-1276
фо	-1277
ца	-1278
це	-1279
цу	-1280
че	-1281
чт	-1282
чу	-1283
ши	-1284
шо	-1285
шу	-1286
шь	-1287
ща	-1288
щи	-1289
ыв	-1290
ые	-1291
ып	-1292
ыт	-1293
ьз	-1294
ьк	-1295
ьм	-1296
ьн	-1297
ью	-1298
юч	-1299
:{	-1300
br	-1301
cl	-1302
di	-1303
ec	-1304
fa	-1305
gi	-1306
mp	-1307
nd	-1308
nl	-1309
pl	-1310
ra	-1311
rl	-1312
ro	-1313
wr	-1314
yt	-1315
ве	-1316
др	-1317
дс	-1318
еж	-1319
жн	-1320
зн	-1321
иц	-1322
йч	-1323
лт	-1324
мм	-1325
мп	-1326
об	-1327
ол	-1328
пи	-1329
рс	-1330
рь	-1331
ум	-1332
фа	-1333
хо	-1334
хр	-1335
ще	-1336
яз	-1337
ян	-1338
яр	-1339
ят	-1340
яч	-1341
▁U	-1342
▁e	-1343
▁h	-1344
▁j	-1345
▁u	-1346
▁{	-1347
▁г	-1348
▁ж	-1349
▁к	-1350
▁р	-1351
▁т	-1352
":{	-1353
OLS	-1354
OUT	-1355
SER	-1356
TOO	-1357
UTP	-1358
[{"	-1359
ack	-1360
ads	-1361
amb	-1362
ame	-1363
anc	-1364
arc	-1365
ast	-1366
atu	-1367
aud	-1368
ayl	-1369
ces	-1370
cko	-1371
cre	-1372
cul	-1373
ded	-1374
dej	-1375
dre	-1376
eat	-1377
ema	-1378
era	-1379
ern	-1380
erp	-1381
ers	-1382
erv	-1383
est	-1384
git	-1385
gua	-1386
hat	-1387
her	-1388
hon	-1389
ice	-1390
igh	-1391
igu	-1392
ile	-1393
ion	-1394
ist	-1395
ker	-1396
lam	-1397
lat	-1398
llb	-1399
мк	-1400
ню	-1401
lle	-1402
lls	-1403
loa	-1404
log	-1405
lou	-1406
mag	-1407
mat	-1408
mem	-1409
men	-1410
mes	-1411
mon	-1412
mpo	-1413
ner	-1414
nes	-1415
ngu	-1416
nin	-1417
nlo	-1418
nod	-1419
not	-1420
now	-1421
nsh	-1422
nst	-1423
nts	-1424
ock	-1425
ogl	-1426
old	-1427
ome	-1428
ous	-1429
per	-1430
por	-1431
pos	-1432
ppo	-1433
rag	-1434
ram	-1435
ran	-1436
rea	-1437
rec	-1438
rel	-1439
ren	-1440
res	-1441
ret	-1442
rgu	-1443
rit	-1444
rre	-1445
run	-1446
sag	-1447
ser	-1448
ses	-1449
sho	-1450
sks	-1451
son	-1452
sta	-1453
sto	-1454
ted	-1455
udi	-1456
uil	-1457
umb	-1458
ume	-1459
und	-1460
unk	-1461
unn	-1462
uns	-1463
unt	-1464
usa	-1465
usi	-1466
ver	-1467
vol	-1468
wor	-1469
}]}	-1470
агр	-1471
аза	-1472
айд	-1473
ако	-1474
алу	-1475
амп	-1476
ата	-1477
ате	-1478
ато	-1479
ачи	-1480
вер	-1481
вес	-1482
вка	-1483
вна	-1484
вно	-1485
вны	-1486
воб	-1487
вод	-1488
гро	-1489
гру	-1490
ден	-1491
дет	-1492
дис	-1493
дни	-1494
док	-1495
еди	-1496
еза	-1497
емя	-1498
ена	-1499
ене	-1500
ени	-1501
енн	-1502
ено	-1503
ент	-1504
ены	-1505
еня	-1506
епо	-1507
ера	-1508
ерв	-1509
ери	-1510
ерк	-1511
ерн	-1512
еро	-1513
ерп	-1514
еры	-1515
ерь	-1516
ест	-1517
ета	-1518
ете	-1519
етк	-1520
жен	-1521
жеш	-1522
жит	-1523
жно	-1524
жны	-1525
заг	-1526
зад	-1527
зам	-1528
зан	-1529
зат	-1530
зву	-1531
зер	-1532
зка	-1533
зни	-1534
ика	-1535
иса	-1536
исо	-1537
исп	-1538
ита	-1539
йча	-1540
каж	-1541
каз	-1542
как	-1543
кал	-1544
ках	-1545
кач	-1546
кие	-1547
код	-1548
кол	-1549
ком	-1550
кон	-1551
кот	-1552
кра	-1553
кри	-1554
кро	-1555
кры	-1556
кти	-1557
лай	-1558
лей	-1559
лис	-1560
лищ	-1561
лов	-1562
лта	-1563
луч	-1564
льз	-1565
льн	-1566
мат	-1567
мац	-1568
маш	-1569
мес	-1570
мко	-1571
муз	-1572
нен	-1573
нер	-1574
нил	-1575
ним	-1576
нна	-1577
нны	-1578
ног	-1579
ова	-1580
ови	-1581
овл	-1582
ода	-1583
одн	-1584
оды	-1585
оис	-1586
ока	-1587
оль	-1588
ома	-1589
ора	-1590
ота	-1591
ото	-1592
пиш	-1593
пка	-1594
поз	-1595
пол	-1596
пус	-1597
пущ	-1598
раб	-1599
раз	-1600
рас	-1601
рат	-1602
рау	-1603
рия	-1604
рка	-1605
рко	-1606
рма	-1607
рна	-1608
ров	-1609
рое	-1610
рой	-1611
рту	-1612
руг	-1613
руз	-1614
сер	-1615
сия	-1616
ска	-1617
сов	-1618
сте	-1619
сть	-1620
тан	-1621
тар	-1622
тат	-1623
таю	-1624
тев	-1625
тей	-1626
тек	-1627
тем	-1628
теп	-1629
тиш	-1630
тка	-1631
тку	-1632
тоб	-1633
тов	-1634
ток	-1635
тон	-1636
тоя	-1637
узи	-1638
узк	-1639
узн	-1640
узо	-1641
узы	-1642
ура	-1643
уск	-1644
уст	-1645
уща	-1646
уще	-1647
фай	-1648
хра	-1649
цес	-1650
цио	-1651
чан	-1652
чат	-1653
чен	-1654
что	-1655
шне	-1656
шню	-1657
шня	-1658
шот	-1659
шут	-1660
щен	-1661
щие	-1662
ыпо	-1663
ько	-1664
ьмо	-1665
ьют	-1666
ючи	-1667
яни	-1668
ята	-1669
ято	-1670
ять	-1671
▁ad	-1672
▁ap	-1673
▁cl	-1674
▁co	-1675
▁cp	-1676
▁cu	-1677
▁da	-1678
▁fa	-1679
▁fi	-1680
▁fo	-1681
▁fr	-1682
▁go	-1683
▁la	-1684
▁ma	-1685
▁ne	-1686
▁nu	-1687
▁op	-1688
▁pa	-1689
▁pl	-1690
▁pr	-1691
▁pu	-1692
▁py	-1693
▁ra	-1694
▁se	-1695
▁so	-1696
▁su	-1697
▁ta	-1698
▁ti	-1699
▁to	-1700
▁tu	-1701
▁ur	-1702
▁бы	-1703
▁ве	-1704
▁вк	-1705
▁вр	-1706
▁де	-1707
▁дл	-1708
▁др	-1709
▁жу	-1710
▁ла	-1711
▁ле	-1712
▁мн	-1713
▁но	-1714
▁ну	-1715
▁оп	-1716
▁ос	-1717
▁от	-1718
▁пе	-1719
▁пи	-1720
▁са	-1721
▁сб	-1722
▁св	-1723
▁сд	-1724
▁си	-1725
▁ск	-1726
▁см	-1727
▁сп	-1728
▁ст	-1729
▁ти	-1730
▁уб	-1731
▁ув	-1732
▁хо	-1733
▁ча	-1734
▁яз	-1735
":{}	-1736
USER	-1737
aker	-1738
allb	-1739
alle	-1740
ambi	-1741
arch	-1742
ayli	-1743
bigu	-1744
call	-1745
cess	-1746
ckou	-1747
cree	-1748
eath	-1749
emon	-1750
ghtn	-1751
guag	-1752
gume	-1753
home	-1754
iles	-1755
iner	-1756
mage	-1757
math	-1758
mess	-1759
nown	-1760
oogl	-1761
pose	-1762
pret	-1763
rans	-1764
read	-1765
reca	-1766
relo	-1767
rest	-1768
rite	-1769
rted	-1770
sage	-1771
sion	-1772
star	-1773
stat	-1774
tain	-1775
thon	-1776
ture	-1777
uild	-1778
uppo	-1779
urre	-1780
usag	-1781
usic	-1782
vice	-1783
wnlo	-1784
айлы	-1785
айти	-1786
вная	-1787
вные	-1788
гром	-1789
дние	-1790
дрес	-1791
еден	-1792
емен	-1793
енен	-1794
енны	-1795
ерев	-1796
ерей	-1797
ерек	-1798
ерки	-1799
ерси	-1800
ессо	-1801
ессы	-1802
еста	-1803
есто	-1804
етка	-1805
жалу	-1806
змен	-1807
зова	-1808
иска	-1809
исок	-1810
испо	-1811
исто	-1812
итон	-1813
итор	-1814
йста	-1815
каза	-1816
кака	-1817
како	-1818
кача	-1819
ключ	-1820
крин	-1821
ктив	-1822
куща	-1823
куще	-1824
лейл	-1825
лена	-1826
ленн	-1827
лено	-1828
лько	-1829
льно	-1830
мате	-1831
маци	-1832
менн	-1833
мито	-1834
мкос	-1835
мотр	-1836
мпер	-1837
мяти	-1838
мять	-1839
нить	-1840
ница	-1841
ницу	-1842
нная	-1843
новл	-1844
овка	-1845
одно	-1846
орка	-1847
орма	-1848
оцес	-1849
писа	-1850
пряч	-1851
раза	-1852
рази	-1853
рать	-1854
ремя	-1855
репо	-1856
рета	-1857
ркос	-1858
стро	-1859
тани	-1860
тарт	-1861
тают	-1862
тево	-1863
тейн	-1864
тема	-1865
тере	-1866
терн	-1867
терп	-1868
тика	-1869
тить	-1870
ткро	-1871
ткры	-1872
тона	-1873
тори	-1874
торы	-1875
трет	-1876
ужен	-1877
ужно	-1878
ужны	-1879
узер	-1880
узка	-1881
узок	-1882
узык	-1883
умен	-1884
уста	-1885
утро	-1886
ущие	-1887
хран	-1888
чать	-1889
чита	-1890
яние	-1891
▁TOO	-1892
▁app	-1893
▁aud	-1894
▁bra	-1895
▁bri	-1896
▁bro	-1897
▁cal	-1898
▁cap	-1899
▁che	-1900
▁clo	-1901
▁com	-1902
▁con	-1903
▁dat	-1904
▁dif	-1905
▁dis	-1906
▁doc	-1907
▁dow	-1908
▁fre	-1909
▁inf	-1910
▁int	-1911
▁lam	-1912
▁lan	-1913
▁lig	-1914
▁lou	-1915
▁mem	-1916
▁net	-1917
▁nod	-1918
▁not	-1919
▁pat	-1920
▁sen	-1921
▁ser	-1922
▁son	-1923
▁spa	-1924
▁spe	-1925
▁sta	-1926
▁tem	-1927
▁tur	-1928
▁unk	-1929
▁	-1930
|	-1931
е	-1932
о	-1933
o	-1934
e	-1935
а	-1936
с	-1937
t	-1938
s	-1939
n	-1940
и	-1941
р	-1942
н	-1943
т	-1944
к	-1945
i	-1946
r	-1947
d	-1948
a	-1949
:	-1950
l	-1951
п	-1952
c	-1953
u	-1954
p	-1955
g	-1956
з	-1957
-	-1958
м	-1959
в	-1960
k	-1961
я	-1962
m	-1963
"	-1964
й	-1965
д	-1966
л	-1967
ы	-1968
f	-1969
у	-1970
h	-1971
ь	-1972
w	-1973
г	-1974
b	-1975
O	-1976
T	-1977
U	-1978
{	-1979
}	-1980
ц	-1981
ч	-1982
б	-1983
v	-1984
S	-1985
y	-1986
ж	-1987
j	-1988
ф	-1989
щ	-1990
,	-1991
E	-1992
L	-1993
P	-1994
R	-1995
[	-1996
]	-1997
_	-1998
х	-1999
ш	-2000
.	-2001
ю	-2002
?	-2003
